188d
ce5b
f9df
c67b
c1aa
fe4c
20d2
fe9c
fdf0
0cfd
fefe
feea
2321
0fed
ffd1
121c
d9e9
fe89
1393
ff36
ff6f
0304
fed7
125c
21a4
d1c1
c2d8
ffde
ff04
bc94
ffc0
ff3c
bd1c
cd53
ff9c
3614
f145
ff4c
14a1
ff04
feb9
f061
d1e2
10ff
ff75
ce37
fe98
ff16
ff05
f683
fed3
ff07
203f
1464
ff3d
ff49
1852
1961
fca6
0a3c
f68a
dbd5
0202
fea9
