f7
c1
7f
80
80
10
d9
fb
7e
a8
ff
16
93
2e
fb
c8
80
0c
ab
e4
e7
c3
df
7f
d2
7f
80
e4
0d
7f
ee
05
7f
80
25
89
b7
f1
3d
0b
fd
5d
50
f3
ff
7f
e5
09
0b
90
00
17
c7
7f
20
e5
22
e3
1b
38
64
77
80
15
80
7f
80
21
80
f1
1f
e1
30
80
11
fe
88
c6
ff
36
33
1c
7f
22
0a
5c
09
04
80
0d
80
df
09
3b
e7
ef
7f
80
0e
1e
80
00
63
0f
0d
7f
7f
f4
ec
7f
e9
e5
13
80
22
f5
7f
80
fc
0a
80
2c
7f
b5
7f
5c
80
1a
47
f0
80
7f
7f
de
e1
ea
ea
5d
f3
de
16
0a
15
ef
7f
f5
a0
fc
24
80
0d
ce
5a
c0
7f
18
e4
80
f7
f7
af
7f
00
f2
7f
ef
ef
e9
21
b1
c7
28
eb
80
f0
10
f7
85
e4
12
f3
89
07
e3
15
f7
80
d6
03
81
fd
f2
dd
80
7f
7f
7f
e8
80
fb
0d
41
e7
df
e9
80
00
b8
7f
fe
02
fb
dc
7f
ed
c0
f2
f1
7f
f9
ee
80
f8
e9
80
4f
fc
ff
7f
e6
80
f4
f2
61
80
80
e4
80
e2
df
dc
7f
eb
fd
f3
7f
e0
fd
34
80
7f
1c
3c
80
7f
19
de
7f
80
80
80
fd
1b
21
0d
16
12
df
7f
f1
ee
12
80
f9
3b
05
dc
80
e3
06
1d
f8
df
18
04
06
17
ff
41
15
09
03
80
19
0e
0c
09
e8
7f
1a
f2
7f
06
f6
11
80
03
01
05
80
fa
0a
e3
01
61
c7
01
0c
80
18
80
01
80
7f
7f
18
10
05
16
80
0f
17
80
80
13
cd
7b
ec
80
0a
07
a1
ea
80
80
65
7f
18
ff
36
d3
f3
5a
74
0d
8c
7f
ef
80
09
20
0a
fe
80
e1
02
fd
e7
80
26
f1
f1
80
f0
13
ea
80
14
a9
80
1d
64
64
05
80
8a
44
1e
43
fd
49
1a
31
27
0a
ef
80
02
16
04
5a
e2
80
ef
04
7f
f2
80
80
cc
0d
15
07
80
1e
fc
dc
f8
ee
42
33
f3
7f
ea
ed
64
cc
fc
1f
c7
19
ef
ed
42
ed
1a
20
87
ff
e6
80
4b
7f
b9
7f
38
19
05
ea
7f
c0
f4
80
f0
30
fe
f9
1a
f8
19
50
f1
0e
04
80
fe
40
ec
00
80
1b
03
ef
80
80
0a
0e
80
ed
db
80
80
dd
02
80
ff
12
01
f0
01
7f
12
ef
7f
17
f5
07
fd
f8
ed
0f
80
e1
0e
e8
09
0a
ec
43
44
80
0e
7f
80
b6
80
80
e6
1e
f5
80
d6
0c
fe
1a
62
1d
4a
80
e2
dd
f1
10
80
ec
58
4e
80
80
15
f0
80
fa
de
80
80
02
32
80
fd
31
04
03
80
80
70
fd
80
f0
e8
2c
7f
fc
fe
17
7f
fa
f8
7f
2f
80
58
80
d9
7f
01
