00
00
00
00
00
00
00
00
00
00
00
00
00
00
00
00
00
00
00
00
00
00
00
00
00
00
00
00
00
00
00
00
00
00
00
00
00
00
00
00
00
00
00
00
00
00
00
00
00
00
00
00
00
00
00
00
00
00
00
00
00
00
00
00
00
00
00
00
00
00
00
00
01
00
fe
01
05
02
f6
ff
f8
09
06
fc
03
0a
f7
fd
03
f9
14
1f
24
15
25
23
12
1d
22
e1
e1
dc
eb
ee
eb
e6
e9
e4
00
00
00
00
00
00
00
00
00
09
05
04
14
17
12
ff
12
06
1b
1e
1e
14
16
17
19
18
1e
f7
fa
f5
f9
f8
fe
fb
ff
fc
07
ff
ff
0b
02
00
12
0f
0c
fc
ed
f2
05
fd
f2
26
1e
01
e9
d8
d1
ff
f3
ea
43
3d
25
f5
fb
fe
ee
f4
fa
e9
eb
f4
00
00
00
00
00
00
00
00
00
f9
f9
f9
07
fe
02
03
03
05
fe
f6
f4
09
fe
ff
22
15
11
03
fc
fb
10
0c
01
19
23
1e
02
fb
f5
13
12
08
08
0d
07
0b
f9
f9
1b
07
fd
04
f1
e3
f0
02
f7
2b
36
2e
1e
1c
0d
fe
00
f5
f4
ea
e3
f6
fb
f5
00
00
00
00
00
00
00
00
00
14
06
06
23
13
0c
22
2c
1d
11
09
08
14
13
15
1b
14
0e
19
11
06
08
11
0f
f4
06
fa
f5
0b
f8
f2
07
f2
fa
fa
01
f0
bd
d1
ee
ed
d8
f2
07
e8
0d
09
09
0b
0b
04
0e
11
0e
13
3f
17
26
4c
35
08
1c
01
00
00
00
00
00
00
00
00
00
04
31
1c
17
0d
0c
f5
f7
02
05
02
04
04
04
05
02
02
08
18
f0
d1
1d
3f
11
02
00
fe
00
00
00
00
00
00
00
00
00
00
00
00
00
00
00
00
00
00
00
00
00
00
00
00
00
00
00
00
00
00
00
00
00
00
00
00
00
00
00
00
00
00
00
00
00
00
00
00
00
00
00
00
00
00
00
00
00
00
00
00
00
00
00
00
00
00
00
00
00
00
00
00
06
fc
04
fe
f3
f4
f7
ff
07
1f
0c
13
17
03
0c
0b
0e
10
fa
e5
f0
e0
cc
e5
d6
cf
e9
ff
f8
02
f6
e7
f5
04
f4
00
00
00
00
00
00
00
00
00
00
f0
ec
ec
ed
d4
e5
f0
eb
f6
f6
ef
f6
e6
e2
f3
e4
ed
f5
11
f8
fa
ff
01
03
ff
f5
09
fb
0a
05
0f
16
13
fc
f9
05
fc
32
15
00
2a
05
cd
d9
cb
f3
42
56
f2
3d
36
ec
d5
cc
0a
04
f2
08
f5
ef
f6
fa
fb
00
00
00
00
00
00
00
00
00
f4
fd
fc
f4
e1
d3
e8
e9
f4
ed
f1
f1
f3
f1
f5
ed
e4
e7
19
17
00
06
09
05
09
0a
0b
f6
f7
fc
fa
f6
fb
fd
f7
f6
06
02
fd
fd
fc
fc
fe
02
01
2c
23
21
20
16
1b
1f
20
25
df
e2
e0
dc
ea
e6
e2
e7
e1
00
00
00
00
00
00
00
00
00
02
fd
01
02
00
03
03
03
ff
13
11
14
0f
0c
0f
10
0c
13
f3
f3
f4
f2
f1
f1
fb
fb
f7
00
00
00
00
00
00
00
00
00
00
00
00
00
00
00
00
00
00
00
00
00
00
00
00
00
00
00
00
00
00
00
00
00
00
00
00
00
00
00
00
00
00
00
00
00
00
00
00
00
00
00
00
00
00
00
00
00
00
00
00
00
00
00
00
00
00
00
00
00
00
00
00
17
21
1a
30
36
0e
24
1c
0f
e6
13
e1
05
29
00
ed
14
f1
0c
0f
f3
16
ed
17
e9
ed
f9
d2
ed
fe
f8
1f
0f
f0
f3
d2
00
00
00
00
00
00
00
00
00
ee
22
33
4a
52
08
3b
0d
ed
00
fd
fa
fe
01
06
f8
05
0a
1c
43
30
39
4f
34
0f
fe
30
13
0a
05
0d
0a
0c
f5
03
0e
13
06
18
10
07
02
14
0d
25
48
33
3b
2a
31
23
26
1c
29
c7
e4
e6
d9
e7
e8
d5
e4
e4
00
00
00
00
00
00
00
00
00
fe
fc
f9
ff
f4
f7
e3
eb
fe
35
21
25
2b
21
22
2e
2b
33
14
0f
f4
10
14
14
0a
16
1f
0e
f4
01
1e
0c
0c
16
17
fd
23
17
e7
46
fe
ca
2a
db
b6
fd
27
04
3f
1f
e7
2c
ec
d1
15
03
e6
00
f2
fb
ea
02
f0
00
00
00
00
00
00
00
00
00
13
ef
02
09
f9
02
09
13
e9
ff
fa
f4
0c
f1
ee
12
f8
ed
0b
f4
f9
03
0e
f7
f7
2b
fe
00
00
00
00
00
00
00
00
00
00
00
00
00
00
00
00
00
00
00
00
00
00
00
00
00
00
00
00
00
00
00
00
00
00
00
00
00
00
00
00
00
00
00
00
00
00
00
00
00
00
00
00
00
00
00
00
00
00
00
00
00
00
00
00
00
00
00
00
00
00
00
00
f9
00
09
fc
04
05
fe
05
ff
d5
e8
01
bb
fd
20
e1
30
49
de
f0
01
d7
dc
1c
ed
0b
5c
01
05
09
f4
fd
fe
00
07
f2
00
00
00
00
00
00
00
00
00
fa
02
07
00
0a
fa
ff
01
01
fb
01
0c
fc
fd
0e
05
0f
1d
fc
ec
f9
f2
fd
ff
19
14
0b
ff
05
11
12
13
fe
0d
fe
00
ee
0b
f4
10
0a
f4
0c
06
f8
ef
fe
ed
0c
fd
1f
f8
00
01
eb
e5
fa
f8
18
17
ef
f4
ee
00
00
00
00
00
00
00
00
00
e8
1f
3d
3d
3e
1f
1d
fe
f8
0a
04
f9
03
06
11
02
09
0a
21
44
33
2b
38
39
f7
f1
34
