00
00
00
00
00
00
00
00
00
f5
f3
f6
f3
f0
f3
f4
f5
f4
00
02
06
02
13
01
ff
ff
ff
f9
f5
f8
f9
f8
f5
f6
f7
f6
06
0d
13
ff
01
05
f8
04
08
00
00
00
00
00
00
00
00
00
07
05
ff
0f
0b
06
17
18
0f
04
06
06
06
f9
02
10
15
0e
fa
f8
fb
f7
f5
f7
f9
f7
f7
00
00
00
00
00
00
00
00
00
ed
ed
00
fe
f7
fc
f8
f9
fa
ef
fa
f5
06
18
fa
ff
0e
f4
00
f9
f9
ff
04
03
fd
05
02
00
00
00
00
00
00
00
00
00
04
f8
03
0c
fa
03
f9
fc
06
f4
f0
fd
ff
f8
f7
f8
f6
f5
00
00
00
00
00
00
00
00
00
12
00
f6
06
fe
f3
05
fe
ff
19
0c
0e
f8
f9
04
dd
e6
ea
15
10
08
0b
05
01
06
03
05
f3
e3
f9
f2
f2
00
ff
f5
1c
00
00
00
00
00
00
00
00
00
df
e6
fa
fd
02
0a
10
0e
11
2f
21
f4
ef
f2
df
f3
07
0d
17
01
f8
03
fb
f5
01
fd
00
00
00
00
00
00
00
00
00
00
00
04
0b
02
07
08
11
01
07
3e
0e
f9
04
fc
f0
f1
e8
cc
2e
0d
00
07
f0
02
fc
f8
1a
00
00
00
00
00
00
00
00
00
fa
fa
e3
f7
f9
ed
eb
ef
d7
09
0c
0c
13
11
0d
0f
04
06
00
00
00
00
00
00
00
00
00
ee
f4
f1
f1
fa
f7
ee
ee
ef
01
0c
06
f7
03
07
e9
f4
f7
00
07
02
02
12
0d
fd
00
04
03
0c
09
f8
ca
06
08
f4
09
00
00
00
00
00
00
00
00
00
fa
00
fd
01
04
03
fa
09
07
06
f7
00
06
fd
fd
24
15
11
ee
f5
f7
ef
f4
f8
f0
ef
f4
00
00
00
00
00
00
00
00
00
33
1a
1a
16
f4
0e
16
14
2d
d8
04
dc
05
1f
02
de
02
dd
f5
06
21
06
fd
2a
09
11
1d
00
00
00
00
00
00
00
00
00
1a
04
fe
15
fd
f8
0e
fd
f1
1d
1f
1a
00
fc
0f
fa
00
1c
00
00
00
00
00
00
00
00
00
00
0e
1e
05
19
13
1b
12
fe
f6
f2
e8
01
07
fd
f3
fb
f3
fd
07
08
12
13
1e
16
0d
fd
0f
f7
03
0c
f0
f7
ea
06
08
00
00
00
00
00
00
00
00
00
f9
f2
f0
f8
04
e1
ee
f3
f3
eb
f8
07
03
0a
05
eb
f5
f3
ff
08
1d
03
16
0a
1b
0d
fe
00
00
00
00
00
00
00
00
00
fb
05
fd
18
0c
0f
0f
19
f4
c5
03
06
fd
f4
06
00
00
d4
f2
0d
1c
00
22
16
0f
2b
11
00
00
00
00
00
00
00
00
00
08
1c
0b
13
12
03
18
0c
f0
06
01
fa
10
11
0e
01
14
fa
00
00
00
00
00
00
00
00
00
08
0c
0c
08
17
0d
ff
0d
0b
f9
05
f9
06
17
0e
eb
01
f0
03
13
07
20
2d
25
02
1b
06
fd
08
f7
fc
f7
01
01
fa
00
00
00
00
00
00
00
00
00
00
ee
e0
ea
d2
db
dd
de
dc
df
e9
ef
ea
0f
0c
0e
05
0d
f9
0a
07
0f
03
0c
05
03
00
0b
00
00
00
00
00
00
00
00
00
fe
10
ff
13
27
1a
01
18
0e
e5
02
e2
f8
0c
03
dd
06
eb
f1
13
0e
fe
1a
15
02
28
01
00
00
00
00
00
00
00
00
00
fb
0f
fe
0d
1b
fc
08
0e
ec
fd
0c
00
12
19
14
03
0e
04
00
00
00
00
00
00
00
00
00
00
00
00
00
00
00
00
00
00
00
00
00
00
00
00
00
00
00
00
00
00
00
00
00
00
00
00
00
00
00
00
00
00
00
00
00
00
00
00
00
00
00
00
00
00
00
00
00
00
00
00
00
00
00
00
00
00
00
00
00
00
00
00
00
00
00
00
00
00
00
00
00
00
00
00
00
00
00
00
00
00
00
00
00
00
00
00
00
00
00
00
00
00
00
00
00
00
00
00
00
00
00
00
00
00
00
00
00
00
00
00
00
00
00
00
00
00
00
00
00
00
00
00
00
00
00
00
00
00
00
00
00
00
00
00
00
00
00
00
00
00
00
00
00
fd
ff
00
fc
fd
00
ff
01
03
02
04
05
08
0c
0b
02
05
05
ff
00
03
00
01
03
02
01
04
05
fc
07
01
fc
fd
03
ff
ff
00
00
00
00
00
00
00
00
00
ff
fe
fd
ff
f8
fb
00
fd
fc
02
05
04
fe
02
02
fd
02
01
fb
fb
fd
f9
f8
fc
fc
fd
fe
00
00
00
00
00
00
00
00
00
02
00
04
fe
01
02
03
02
04
0c
10
16
0e
17
14
16
16
21
04
01
05
03
02
00
02
00
01
00
00
00
00
00
00
00
00
00
05
04
03
04
06
01
05
03
ff
01
00
03
01
04
02
05
06
05
00
00
00
00
00
00
00
00
00
00
00
00
00
00
00
00
00
00
00
00
00
00
00
00
00
00
00
00
00
00
00
00
00
00
00
00
00
00
00
00
00
00
00
00
00
00
00
00
00
00
00
00
00
00
00
00
00
00
00
00
00
00
00
00
00
00
00
00
00
00
00
00
00
00
00
00
00
00
00
00
00
00
00
00
00
00
00
00
00
00
00
00
00
00
00
00
00
00
00
00
00
00
00
00
00
00
00
00
00
00
00
00
00
00
00
00
00
00
00
00
00
00
00
00
00
00
00
00
00
00
00
00
00
00
00
00
00
00
00
00
00
00
00
00
00
00
00
00
00
00
00
00
00
03
ff
fc
0a
ff
fd
04
fd
fb
02
03
05
06
00
ff
f7
fb
fd
08
00
ff
0c
06
ff
03
ff
fb
f9
07
f2
12
16
1e
e4
e1
ea
00
00
00
00
00
00
00
00
00
fb
f5
01
fd
04
f9
07
07
05
f8
f3
fd
fe
f3
03
01
01
f7
02
fe
fd
0a
ff
fd
03
fd
fc
00
00
00
00
00
00
00
00
00
ff
fe
fc
07
0c
0e
f9
0a
02
02
fc
f6
0d
ff
fc
04
ff
f4
06
f4
f5
07
f3
f2
06
fd
00
00
00
00
00
00
00
00
00
00
f5
f8
fb
f6
f2
f7
fe
01
f6
05
09
01
0d
10
0f
f7
03
04
00
00
00
00
00
00
00
00
00
fd
ff
fd
fe
00
00
fd
00
ff
fb
03
ff
fe
ff
fd
fb
fc
f8
f9
fe
fb
fa
ff
ff
fa
fd
fd
ef
f3
ed
f3
f4
ee
f7
f3
f4
00
00
00
00
00
00
00
00
00
10
07
10
0c
02
0b
17
10
17
f9
fc
f7
f7
00
fa
f7
fa
f3
ff
00
fd
fe
00
00
fe
00
00
00
00
00
00
00
00
00
00
00
f5
f6
f9
ef
f2
f3
f5
f5
f6
f0
fb
f2
fe
07
ff
fc
fd
f5
f6
f8
f9
f8
f9
fc
f4
f2
f5
00
00
00
00
00
00
00
00
00
f8
fd
fd
fe
fa
fc
f8
f8
fa
fb
fb
fa
f8
fb
f6
fd
fe
f9
00
00
00
00
00
00
00
00
00
00
00
00
00
00
00
00
00
00
00
00
00
00
00
00
00
00
00
00
00
00
00
00
00
00
00
00
00
00
00
00
00
00
00
00
00
00
00
00
00
00
00
00
00
00
00
00
00
00
00
00
00
00
00
00
00
00
00
00
00
00
00
00
00
00
00
00
00
00
00
00
00
00
00
00
00
00
00
00
00
00
00
00
00
00
00
00
00
00
00
00
00
00
00
00
00
00
00
00
00
00
00
00
00
00
00
00
00
00
00
00
00
00
00
00
00
00
00
00
00
00
00
00
00
00
00
00
00
00
00
00
00
00
00
00
00
00
00
00
00
00
00
00
00
00
00
00
00
00
00
00
00
00
00
00
00
00
00
00
00
00
00
00
00
00
00
00
00
00
00
00
00
00
00
00
00
00
00
00
00
00
00
00
00
00
00
00
00
00
00
00
00
00
00
00
00
00
00
00
00
00
00
00
00
00
00
00
00
00
00
00
00
00
00
00
00
00
00
00
00
00
00
00
00
00
00
00
00
00
00
00
00
00
00
00
00
00
00
00
00
00
00
00
00
00
00
00
00
00
00
00
00
00
00
00
00
00
00
00
00
00
00
00
00
00
00
00
00
00
00
00
00
00
00
00
00
00
00
00
00
00
00
00
00
00
00
00
00
fb
fb
01
fe
fe
00
ff
fd
fc
00
06
11
fa
fb
f8
f1
fc
fc
f9
fb
03
fb
fd
ff
fb
fc
fb
f2
f1
ec
f9
f8
f4
01
f6
f2
00
00
00
00
00
00
00
00
00
09
04
fb
05
ff
ff
09
07
0b
f8
04
14
f7
0c
11
05
ff
f5
fd
fd
ff
ff
ff
00
00
ff
fd
00
00
00
00
00
00
00
00
00
f8
f7
f3
f8
f8
f7
fe
fa
f6
eb
ff
15
f5
00
06
eb
f4
f0
fd
fe
0b
fb
fd
fe
f8
f7
f3
00
00
00
00
00
00
00
00
00
fd
10
0c
fd
fc
fb
fc
fc
fe
fd
fc
f8
fd
00
fb
fc
fe
fb
00
00
00
00
00
00
00
00
00
fe
ff
fc
fe
ff
fd
01
05
01
f9
fb
fe
03
01
02
fa
09
09
fa
fc
fd
fc
fd
fc
fd
06
03
10
10
1c
0e
0d
0d
02
09
1c
00
00
00
00
00
00
00
00
00
f7
f8
f7
02
fe
f9
07
00
ff
fc
01
02
fb
f8
fb
f6
f9
f7
ff
ff
fe
fe
ff
fe
00
04
01
00
00
00
00
00
00
00
00
00
f5
f7
01
fc
f7
f7
fd
ff
03
f6
fa
f9
f8
fa
f5
03
10
06
fd
fa
fc
ff
fb
f6
fa
ff
01
00
00
00
00
00
00
00
00
00
00
00
fb
05
05
01
ff
04
fe
f9
f7
02
00
fa
f8
01
04
07
00
00
00
00
00
00
00
00
00
00
00
00
00
00
00
00
00
00
00
00
00
00
00
00
00
00
00
00
00
00
00
00
00
00
00
00
00
00
00
00
00
00
00
00
00
00
00
00
00
00
00
00
00
00
00
00
00
00
00
00
00
00
00
00
00
00
00
00
00
00
00
00
00
00
00
00
00
00
00
00
00
00
00
00
00
00
00
00
00
00
00
00
00
00
00
00
00
00
00
00
00
00
00
00
00
00
00
00
00
00
00
00
00
00
00
00
00
00
00
00
00
00
00
00
00
00
00
00
00
00
00
00
00
00
00
00
00
00
00
00
00
00
00
00
00
00
00
00
00
00
00
00
00
02
fe
ff
00
fe
ff
03
00
00
ff
fa
03
03
fe
fd
07
05
03
01
fd
fe
ff
fd
fe
03
01
00
ff
02
20
ff
fb
02
fd
ff
00
00
00
00
00
00
00
00
00
00
fb
fa
f8
01
fe
f9
fe
fe
fc
fd
fd
03
fc
fc
02
fd
fc
ff
02
fe
00
00
ff
ff
01
ff
ff
00
00
00
00
00
00
00
00
00
fd
fb
0b
03
fb
01
fd
fb
fd
05
f4
f5
fe
f8
fc
0c
fe
01
02
fc
02
02
fc
fd
02
00
fd
00
00
00
00
00
00
00
00
00
fe
ff
04
ff
fb
01
ff
fe
05
fe
fc
0a
02
fc
00
00
00
fe
00
00
00
00
00
00
00
00
00
18
11
fb
0a
1b
09
f7
0c
21
01
14
ff
0a
07
11
e4
f9
06
09
0e
00
1e
1f
1f
f7
0a
0f
fb
ee
08
fc
0a
07
0b
f4
f3
00
00
00
00
00
00
00
00
00
fd
00
fb
e4
ea
f2
e9
f2
e7
fb
00
f1
0e
fc
00
ff
fd
ed
1c
0b
fd
03
17
04
f7
04
1a
00
00
00
00
00
00
00
00
00
07
0a
13
15
33
25
13
17
0d
0c
0b
cc
fa
f0
06
b6
01
0b
ee
1d
0d
fe
0a
fd
fd
10
fb
00
00
00
00
00
00
00
00
00
ee
08
f8
fb
f9
f8
08
06
f8
02
07
0d
15
22
1d
09
07
09
00
00
00
00
00
00
00
00
00
00
00
00
00
00
00
00
00
00
00
00
00
00
00
00
00
00
00
00
00
00
00
00
00
00
00
00
00
00
00
00
00
00
00
00
00
00
00
00
00
00
00
00
00
00
00
00
00
00
00
00
00
00
00
00
00
00
00
00
00
00
00
00
00
00
00
00
00
00
00
00
00
00
00
00
00
00
00
00
00
00
00
00
00
00
00
00
00
00
00
00
00
00
00
00
00
00
00
00
00
00
00
00
00
00
00
00
00
00
00
00
00
00
00
00
00
00
00
00
00
00
00
00
00
00
00
00
00
00
00
00
00
00
00
00
00
00
00
00
00
00
00
00
00
08
04
0f
01
f6
08
ff
fb
0d
03
eb
fb
04
ec
f3
1e
10
11
09
00
07
03
f7
fc
02
01
08
09
f2
05
f2
dc
f4
03
ea
01
00
00
00
00
00
00
00
00
00
01
0c
01
0a
14
0a
ff
0a
ff
0f
13
23
f4
f0
03
fa
f6
0c
05
01
08
03
f8
02
ff
fa
06
00
00
00
00
00
00
00
00
00
05
ff
06
05
00
fd
11
04
ff
0d
f2
1b
f1
c5
f7
02
e8
0e
24
fd
04
1a
f8
fe
0f
fa
13
00
00
00
00
00
00
00
00
00
01
f7
0c
fe
ff
20
0a
15
2d
02
01
05
ff
fd
fd
06
02
00
00
00
00
00
00
00
00
00
00
00
00
00
00
00
00
00
00
00
00
00
00
00
00
00
00
00
00
00
00
00
00
00
00
00
00
00
00
00
00
00
00
00
00
00
00
00
00
00
00
00
00
00
00
00
00
00
00
00
00
00
00
00
00
00
00
00
00
00
00
00
00
00
00
00
00
00
00
00
00
00
00
00
00
00
00
00
00
00
00
00
00
00
00
00
00
00
00
00
00
00
00
00
00
00
00
00
00
00
00
00
00
00
00
00
00
00
00
00
00
00
00
00
00
00
00
00
00
00
00
00
00
00
00
00
00
00
00
00
00
00
00
00
00
00
00
00
00
00
00
00
00
00
00
00
00
00
00
00
00
00
00
00
00
00
00
00
00
00
00
00
00
00
00
00
00
00
00
00
00
00
00
00
00
00
00
00
00
00
00
00
00
00
00
00
00
00
00
00
00
00
00
00
00
00
00
00
00
00
00
00
00
00
00
00
00
00
00
00
00
00
00
00
00
00
00
00
00
00
00
00
00
00
00
00
00
00
00
00
00
00
00
00
00
00
00
00
00
00
00
00
00
00
00
00
00
00
00
00
00
00
00
00
00
00
00
00
00
00
00
00
00
00
00
00
00
00
00
00
00
00
00
00
00
00
00
00
00
00
00
00
00
00
00
00
00
00
00
fe
fc
00
fe
fe
fe
ff
fd
ff
f9
fc
f3
fe
fc
03
fa
ff
fe
00
fa
fe
fd
f8
02
fe
f7
01
f8
fb
ed
f5
f2
f6
fa
f7
f8
00
00
00
00
00
00
00
00
00
fc
0c
fa
ff
17
fa
03
0a
f5
f4
05
f9
fe
fc
05
f0
f7
f7
ff
00
00
00
01
ff
00
01
00
00
00
00
00
00
00
00
00
00
05
1c
06
13
35
15
09
13
0b
e8
fd
df
f8
07
f2
ea
f4
db
03
12
f5
f1
02
f5
06
1a
fe
00
00
00
00
00
00
00
00
00
f1
05
fa
ee
07
fa
fa
08
f2
ff
0b
04
0f
19
10
00
08
05
00
00
00
00
00
00
00
00
00
00
00
00
00
00
00
00
00
00
00
00
00
00
00
00
00
00
00
00
00
00
00
00
00
00
00
00
00
00
00
00
00
00
00
00
00
00
00
00
00
00
00
00
00
00
00
00
00
00
00
00
00
00
00
00
00
00
00
00
00
00
00
00
00
00
00
00
00
00
00
00
00
00
00
00
00
00
00
00
00
00
00
00
00
00
00
00
00
00
00
00
00
00
00
00
00
00
00
00
00
00
00
00
00
00
00
00
00
00
00
00
00
00
00
00
00
00
00
00
00
00
00
00
00
00
00
00
00
00
00
00
00
00
00
00
00
00
00
00
00
00
00
00
00
00
f9
f7
09
fc
f7
05
f9
f7
0d
03
fb
0f
fb
fc
ff
fa
fb
05
ff
fe
0f
fe
fa
05
fa
fa
1c
0c
fe
02
07
06
fc
08
11
00
00
00
00
00
00
00
00
00
f3
f8
fa
f7
ff
fb
03
05
01
fc
fe
03
fc
fe
fe
0a
07
07
02
fc
f8
09
fd
f9
04
fc
f9
00
00
00
00
00
00
00
00
00
fe
ff
fe
01
ff
ff
01
00
09
fc
f7
fa
1d
f5
f5
12
ee
f0
02
05
fe
11
03
fc
0a
0d
fb
00
00
00
00
00
00
00
00
00
00
04
06
f9
03
06
fc
03
04
03
fc
fd
04
fb
fc
fe
fc
06
00
00
00
00
00
00
00
00
00
f2
f6
f7
f9
f9
f7
f9
f7
f7
06
06
fe
f8
08
0d
fd
fa
fc
f6
f9
f7
f9
fb
fa
f7
f9
fa
fd
ff
01
fd
0d
05
07
ff
f5
00
00
00
00
00
00
00
00
00
0d
0c
0c
0a
09
0c
0d
0a
13
03
06
0d
11
06
fb
03
1c
0c
f7
f9
fb
fb
fc
fb
fc
fb
f9
00
00
00
00
00
00
00
00
00
f9
f8
f6
f7
fc
fc
ef
f8
fd
fc
fe
ee
fb
06
ff
ec
fe
06
fe
04
fb
03
04
05
fe
fd
05
00
00
00
00
00
00
00
00
00
08
02
fe
03
0f
00
fc
fe
fe
fd
fa
f6
f7
fa
fc
f3
f9
fa
00
00
00
00
00
00
00
00
00
12
0e
12
12
16
12
15
14
12
f8
fc
f8
f7
fc
fa
03
f5
02
03
03
02
00
0c
01
06
02
fe
e5
ec
de
f3
fc
ee
e9
f5
e8
00
00
00
00
00
00
00
00
00
0b
fd
00
05
fd
fe
0e
05
0d
fd
03
00
f2
f3
f7
f0
f4
f1
12
10
0f
18
1f
17
14
18
12
00
00
00
00
00
00
00
00
00
e3
ed
eb
e8
f2
ee
df
e7
ec
15
0c
11
07
03
06
12
08
13
f9
f1
f2
e7
ec
eb
ef
e9
e9
00
00
00
00
00
00
00
00
00
ef
f9
f9
f4
fc
fe
e8
fa
19
f2
f5
ee
f4
f8
f1
f9
f5
f9
00
00
00
00
00
00
00
00
00
16
0e
09
0c
0b
0a
08
06
01
05
07
05
fb
09
ff
f4
04
ef
16
0b
06
12
11
0e
02
0b
fd
0b
0e
0a
ff
ee
f9
fc
fb
04
00
00
00
00
00
00
00
00
00
e1
ef
f3
e8
f1
ef
f4
f5
f3
09
02
01
00
06
02
f5
08
f9
1b
12
0d
0e
07
08
0a
05
05
00
00
00
00
00
00
00
00
00
0e
1b
0b
13
12
0a
fd
ff
f7
09
03
03
02
07
01
f7
00
e2
01
0a
f6
00
11
00
fa
1f
f7
00
00
00
00
00
00
00
00
00
04
06
f8
04
08
f7
06
04
f2
08
11
09
07
0d
09
fa
ff
f5
00
00
00
00
00
00
00
00
00
00
00
00
00
00
00
00
00
00
00
00
00
00
00
00
00
00
00
00
00
00
00
00
00
00
00
00
00
00
00
00
00
00
00
00
00
00
00
00
00
00
00
00
00
00
00
00
00
00
00
00
00
00
00
00
00
00
00
00
00
00
00
00
00
00
00
00
00
00
00
00
00
00
00
00
00
00
00
00
00
00
00
00
00
00
00
00
00
00
00
00
00
00
00
00
00
00
00
00
00
00
00
00
00
00
00
00
00
00
00
00
00
00
00
00
00
00
00
00
00
00
00
00
00
00
00
00
00
00
00
00
00
00
00
00
00
00
00
00
00
00
00
00
00
00
00
00
00
00
00
00
00
00
00
00
00
00
00
00
00
00
00
00
00
00
00
00
00
00
00
00
00
00
00
00
00
00
00
00
00
00
00
00
00
00
00
00
00
00
00
00
00
00
00
00
00
00
00
00
00
00
00
00
00
00
00
00
00
00
00
00
00
00
00
00
00
00
00
00
00
00
00
00
00
00
00
00
00
00
00
00
00
00
00
00
00
00
00
00
00
00
00
00
00
00
00
00
00
00
00
00
00
00
00
00
00
00
00
00
00
00
00
00
00
00
00
00
00
00
00
00
00
00
00
00
00
00
00
00
00
00
00
00
00
00
00
00
00
00
0d
03
18
23
18
09
18
09
fd
1d
14
eb
10
02
d9
ee
dc
01
1d
0a
07
20
13
f7
14
04
e8
ed
e1
f8
f1
ee
f4
f8
ed
00
00
00
00
00
00
00
00
00
11
f3
09
00
02
01
14
01
1b
da
db
d2
fc
f7
e6
0f
11
f2
01
0f
07
17
25
1c
0a
1a
10
00
00
00
00
00
00
00
00
00
ec
f8
f3
ec
e7
ee
e8
e9
e7
e3
03
e6
06
33
04
ef
0b
e9
eb
f1
fd
f7
0d
1b
d4
ee
0e
00
00
00
00
00
00
00
00
00
19
f7
d0
09
09
e2
db
e7
dc
00
13
fe
f8
fe
f7
f8
f9
ee
00
00
00
00
00
00
00
00
00
00
00
00
00
00
00
00
00
00
00
00
00
00
00
00
00
00
00
00
00
00
00
00
00
00
00
00
00
00
00
00
00
00
00
00
00
00
00
00
00
00
00
00
00
00
00
00
00
00
00
00
00
00
00
00
00
00
00
00
00
00
00
00
00
00
00
00
00
00
00
00
00
00
00
00
00
00
00
00
00
00
00
00
00
00
00
00
00
00
00
00
00
00
00
00
00
00
00
00
00
00
00
00
00
00
00
00
00
00
00
00
00
00
00
00
00
00
00
00
00
00
00
00
00
00
00
00
00
00
00
00
00
00
00
00
00
00
00
00
00
00
00
00
00
00
00
00
00
00
00
00
00
00
00
00
00
00
00
00
00
00
00
00
00
00
00
00
00
00
00
00
00
00
00
00
00
00
00
00
00
00
00
00
00
00
00
00
00
00
00
00
00
00
00
00
00
00
00
00
00
00
00
00
00
00
00
00
00
00
00
00
00
00
00
00
00
00
00
00
00
00
00
00
00
00
00
00
00
00
00
00
00
00
00
00
00
00
00
00
00
00
00
00
00
00
00
00
00
00
00
00
00
00
00
00
00
00
00
00
00
00
00
00
00
00
00
00
00
00
00
00
00
00
00
00
00
00
00
00
00
00
00
00
00
00
00
00
00
f8
07
fd
0a
13
0e
ff
11
02
01
14
0a
f9
14
04
e1
f5
e9
fe
19
0c
0e
1c
1c
fa
14
06
ea
f5
e8
f9
eb
f3
e9
e8
ef
00
00
00
00
00
00
00
00
00
21
02
03
0a
02
ec
1c
06
03
f6
f8
e2
03
07
01
06
09
f9
f8
06
fe
07
15
0c
fd
0d
04
00
00
00
00
00
00
00
00
00
fd
10
fd
09
03
09
f3
f4
fd
ea
07
eb
01
19
fc
f0
07
ed
f1
10
03
fc
15
12
e5
02
05
00
00
00
00
00
00
00
00
00
10
01
ec
03
16
f2
f1
f7
e7
07
1b
05
12
0d
10
ff
00
00
00
00
00
00
00
00
00
00
00
0e
0e
15
0b
03
10
06
07
10
f1
f7
01
f1
06
06
f0
f9
fe
03
03
0c
03
09
0f
ff
05
07
0d
01
1b
fb
f1
03
06
fc
14
00
00
00
00
00
00
00
00
00
ed
f7
ef
f2
f8
f1
f0
f3
ec
ef
06
0c
fc
01
05
f6
f9
fa
12
11
19
0d
05
0a
0b
07
0f
00
00
00
00
00
00
00
00
00
fc
09
11
00
0a
0b
fc
04
fe
f5
09
18
f7
07
15
e2
fc
09
f3
01
06
f0
03
05
f0
f4
02
00
00
00
00
00
00
00
00
00
07
0a
05
fe
ff
ff
ec
f6
ef
ff
04
0c
ff
06
0f
fa
fe
fe
00
00
00
00
00
00
00
00
00
00
00
00
00
00
00
00
00
00
00
00
00
00
00
00
00
00
00
00
00
00
00
00
00
00
00
00
00
00
00
00
00
00
00
00
00
00
00
00
00
00
00
00
00
00
00
00
00
00
00
00
00
00
00
00
00
00
00
00
00
00
00
00
00
00
00
00
00
00
00
00
00
00
00
00
00
00
00
00
00
00
00
00
00
00
00
00
00
00
00
00
00
00
00
00
00
00
00
00
00
00
00
00
00
00
00
00
00
00
00
00
00
00
00
00
00
00
00
00
00
00
00
00
00
00
00
00
00
00
00
00
00
00
00
00
00
00
00
00
00
00
00
00
00
00
00
02
fc
fb
fd
02
f9
ff
01
fc
03
0d
02
01
1c
07
06
00
fe
00
fe
fa
fd
06
fe
fe
0f
04
20
fb
fd
fa
02
f9
04
00
00
00
00
00
00
00
00
00
0c
12
08
11
14
16
0a
15
0e
06
06
02
fd
03
04
04
ff
03
fd
fb
fd
f9
f7
fa
ff
f7
fb
00
00
00
00
00
00
00
00
00
05
08
10
02
05
05
0b
04
06
08
03
09
06
ff
03
1a
04
0e
04
02
fe
04
02
ff
0d
07
fe
00
00
00
00
00
00
00
00
00
04
01
01
00
04
06
01
05
0e
04
05
10
03
04
04
06
00
05
00
00
00
00
00
00
00
00
00
fc
06
fe
fe
01
00
f7
fe
fe
fb
f5
ed
17
14
0a
f4
0a
fa
00
0b
fe
11
0d
0a
fc
06
fd
01
f9
fc
00
05
ff
ff
ef
fe
00
00
00
00
00
00
00
00
00
ea
e7
df
ea
fd
ed
f8
fb
f3
f6
11
f8
0b
17
12
ef
f3
fc
fd
01
ff
fc
fd
01
fb
ff
ff
00
00
00
00
00
00
00
00
00
f6
05
02
16
1c
08
ff
08
fb
e9
04
ec
09
23
09
e7
0a
ed
00
25
06
09
13
f6
0a
1f
fc
00
00
00
00
00
00
00
00
00
e1
0a
0a
fe
1c
fd
01
11
ef
fa
fd
ff
14
09
0a
01
02
fc
00
00
00
00
00
00
00
00
00
00
00
00
00
00
00
00
00
00
00
00
00
00
00
00
00
00
00
00
00
00
00
00
00
00
00
00
00
00
00
00
00
00
00
00
00
00
00
00
00
00
00
00
00
00
00
00
00
00
00
00
00
00
00
00
00
00
00
00
00
00
00
00
00
00
00
00
00
00
00
00
00
00
00
00
00
00
00
00
00
00
00
00
00
00
00
00
00
00
00
00
00
00
00
00
00
00
00
00
00
00
00
00
00
00
00
00
00
00
00
00
00
00
00
00
00
00
00
00
00
00
00
00
00
00
00
00
00
00
00
00
00
00
00
00
00
00
00
00
00
00
00
00
00
fd
fe
fd
fd
00
fe
fd
00
fd
fb
ff
fa
f6
f9
fb
fd
00
fe
fc
fc
fa
f9
00
fd
fb
fe
fc
16
1c
07
13
19
0e
15
1c
0b
00
00
00
00
00
00
00
00
00
f4
fa
fc
ff
f8
02
fe
01
00
fc
fe
f7
ff
fc
f7
fa
fa
f7
ff
ff
fe
ff
00
00
ff
ff
fd
00
00
00
00
00
00
00
00
00
ff
02
fa
f9
fe
f9
f7
fa
ff
fd
f5
f7
ed
fe
f1
f3
f0
f5
fa
00
f9
ef
f7
fc
f6
fb
f5
00
00
00
00
00
00
00
00
00
01
05
fe
08
03
fa
01
00
00
01
00
fa
fb
fe
fb
fb
fa
ff
00
00
00
00
00
00
00
00
00
00
00
00
00
00
00
00
00
00
00
00
00
00
00
00
00
00
00
00
00
00
00
00
00
00
00
00
00
00
00
00
00
00
00
00
00
00
00
00
00
00
00
00
00
00
00
00
00
00
00
00
00
00
00
00
00
00
00
00
00
00
00
00
00
00
00
00
00
00
00
00
00
00
00
00
00
00
00
00
00
00
00
00
00
00
00
00
00
00
00
00
00
00
00
00
00
00
00
00
00
00
00
00
00
00
00
00
00
00
00
00
00
00
00
00
00
00
00
00
00
00
00
00
00
00
00
00
00
00
00
00
00
00
00
00
00
00
00
00
00
00
00
00
00
00
00
00
00
00
00
00
00
00
00
00
00
00
00
00
00
00
00
00
00
00
00
00
00
00
00
00
00
00
00
00
00
00
00
00
00
00
00
00
00
00
00
00
00
00
00
00
00
00
00
00
00
00
00
00
00
00
00
00
00
00
00
00
00
00
00
00
00
00
00
00
00
00
00
00
00
00
00
00
00
00
00
00
00
00
00
00
00
00
00
00
00
00
00
00
00
00
00
00
00
00
00
00
00
00
00
00
00
00
00
00
00
00
00
00
00
00
00
00
00
00
00
00
00
00
00
00
00
00
00
00
00
00
00
00
00
00
00
00
00
00
00
00
00
fe
01
fb
03
0a
03
fa
02
ff
06
0c
06
07
03
06
f6
f8
02
07
04
06
08
11
0a
fb
02
04
fd
fc
ef
11
19
1d
e8
e2
ec
00
00
00
00
00
00
00
00
00
fe
f3
05
01
00
f4
13
0b
08
f7
ef
01
03
f5
0a
02
03
01
fa
fc
f9
fe
07
01
f7
fe
fc
00
00
00
00
00
00
00
00
00
06
02
00
13
17
17
ff
04
0d
f8
03
f3
03
07
04
f9
01
f9
fa
f6
f5
f4
f8
f3
fe
02
01
00
00
00
00
00
00
00
00
00
ef
fb
ff
f6
f3
f0
07
fc
f8
0b
0d
08
19
1a
1d
fb
08
0c
00
00
00
00
00
00
00
00
00
05
04
02
0e
0a
09
17
0d
0f
f1
f9
fb
f5
f2
f6
24
2a
25
03
03
03
07
09
0d
1a
14
1c
09
ec
08
ed
d7
f5
01
f4
f7
00
00
00
00
00
00
00
00
00
10
0a
07
03
01
04
f4
ef
f1
de
e1
da
f6
f2
ec
f4
fc
fa
05
04
02
0c
09
07
15
11
0c
00
00
00
00
00
00
00
00
00
1b
15
0d
0c
05
0e
06
03
03
ca
e6
d8
f6
f9
f8
22
19
1f
ee
fd
fb
f2
08
08
00
0e
03
00
00
00
00
00
00
00
00
00
0a
f7
f8
f7
f8
15
17
2c
36
0e
12
0f
06
07
0f
10
0f
13
00
00
00
00
00
00
00
00
00
ff
fe
fc
fd
fe
fe
ff
ff
02
fb
fa
fc
ff
fb
06
00
07
11
fc
fc
fb
f9
fb
fd
fe
01
08
1f
19
18
1b
13
09
17
0c
0a
00
00
00
00
00
00
00
00
00
f1
f2
f7
fa
f4
f7
fe
f7
f5
fe
02
fc
f9
f5
fc
fe
ff
01
00
ff
fd
fe
00
fe
ff
00
ff
00
00
00
00
00
00
00
00
00
f4
fc
fe
f9
fb
f8
f8
fd
08
f7
ec
f6
ee
ee
fc
fa
01
16
00
f9
fe
04
f2
02
fb
f7
04
00
00
00
00
00
00
00
00
00
00
0a
01
0b
0d
02
fe
08
0a
f9
fc
fd
fb
f9
fb
fe
00
09
00
00
00
00
00
00
00
00
00
00
00
00
00
00
00
00
00
00
00
00
00
00
00
00
00
00
00
00
00
00
00
00
00
00
00
00
00
00
00
00
00
00
00
00
00
00
00
00
00
00
00
00
00
00
00
00
00
00
00
00
00
00
00
00
00
00
00
00
00
00
00
00
00
00
00
00
00
00
00
00
00
00
00
00
00
00
00
00
00
00
00
00
00
00
00
00
00
00
00
00
00
00
00
00
00
00
00
00
00
00
00
00
00
00
00
00
00
00
00
00
00
00
00
00
00
00
00
00
00
00
00
00
00
00
00
00
00
00
00
00
00
00
00
00
00
00
00
00
00
00
00
00
00
0a
00
fd
13
fe
fc
07
fd
fb
13
eb
ff
18
e8
f6
1d
03
f5
12
03
fe
10
01
ff
0e
06
fd
f3
f4
01
e2
e2
ec
f1
f1
07
00
00
00
00
00
00
00
00
00
f4
07
13
f4
07
10
f8
ff
11
f3
ed
db
f5
f3
ee
f3
f0
ec
07
00
fe
14
ff
fd
07
fd
fd
00
00
00
00
00
00
00
00
00
00
0c
0c
fb
00
fe
09
11
0a
1d
ea
d9
2a
e5
ed
2b
f5
dc
38
f8
f3
2d
e7
f5
1a
ec
f6
00
00
00
00
00
00
00
00
00
fb
fc
e9
e7
fb
e6
f5
f3
dc
0b
0e
09
04
04
01
12
12
0c
00
00
00
00
00
00
00
00
00
00
00
00
00
00
00
00
00
00
00
00
00
00
00
00
00
00
00
00
00
00
00
00
00
00
00
00
00
00
00
00
00
00
00
00
00
00
00
00
00
00
00
00
00
00
00
00
00
00
00
00
00
00
00
00
00
00
00
00
00
00
00
00
00
00
00
00
00
00
00
00
00
00
00
00
00
00
00
00
00
00
00
00
00
00
00
00
00
00
00
00
00
00
00
00
00
00
00
00
00
00
00
00
00
00
00
00
00
00
00
00
00
00
00
00
00
00
00
00
00
00
00
00
00
00
00
00
00
00
00
00
00
00
00
00
00
00
00
00
00
00
00
00
00
00
00
00
00
00
00
00
00
00
00
00
00
00
00
00
00
00
00
00
00
00
00
00
00
00
00
00
00
00
00
00
00
00
00
00
00
00
00
00
00
00
00
00
00
00
00
00
00
00
00
00
00
00
00
00
00
00
00
00
00
00
00
00
00
00
00
00
00
00
00
00
00
00
00
00
00
00
00
00
00
00
00
00
00
00
00
00
00
00
00
00
00
00
00
00
00
00
00
00
00
00
00
00
00
00
00
00
00
00
00
00
00
00
00
00
00
00
00
00
00
00
00
00
00
00
00
00
00
00
00
00
00
00
00
00
00
00
00
00
00
00
00
00
00
00
00
00
00
00
00
00
00
00
00
00
00
00
00
00
00
00
00
00
00
00
00
00
00
00
00
00
00
00
00
00
00
00
00
00
00
00
00
00
00
00
00
00
00
00
00
00
00
00
00
00
00
00
00
00
00
00
00
00
00
00
00
00
00
00
00
00
00
00
00
00
00
00
00
00
00
00
00
00
00
00
00
00
00
00
00
00
00
00
00
00
00
00
00
00
00
00
00
00
00
00
00
00
00
00
00
00
00
00
00
00
00
00
00
00
00
00
00
00
00
00
00
00
00
00
00
00
00
00
00
00
00
00
00
00
00
00
00
00
00
00
00
00
00
ff
00
01
fe
fb
00
00
ff
01
0b
ff
ff
0c
f7
01
24
0e
17
04
01
01
03
02
01
04
01
04
00
05
00
fe
f3
fe
ef
ef
ec
00
00
00
00
00
00
00
00
00
f2
f6
f8
f1
f6
f9
e9
f0
f3
13
15
13
02
08
0b
0e
ff
0f
fb
fa
fd
fb
f7
fc
fd
fb
fd
00
00
00
00
00
00
00
00
00
f5
fc
ee
f7
fa
f8
fd
f5
fe
12
11
0c
06
e6
0b
20
fd
1a
0b
07
0a
12
fe
ff
0e
ff
06
00
00
00
00
00
00
00
00
00
00
02
0a
03
f9
08
06
0a
12
f8
fe
f3
f9
fa
f8
fb
f6
fa
00
00
00
00
00
00
00
00
00
00
00
00
00
00
00
00
00
00
00
00
00
00
00
00
00
00
00
00
00
00
00
00
00
00
00
00
00
00
00
00
00
00
00
00
00
00
00
00
00
00
00
00
00
00
00
00
00
00
00
00
00
00
00
00
00
00
00
00
00
00
00
00
00
00
00
00
00
00
00
00
00
00
00
00
00
00
00
00
00
00
00
00
00
00
00
00
00
00
00
00
00
00
00
00
00
00
00
00
00
00
00
00
00
00
00
00
00
00
00
00
00
00
00
00
00
00
00
00
00
00
00
00
00
00
00
00
00
00
00
00
00
00
00
00
00
00
00
00
00
00
00
00
00
00
00
00
00
00
00
00
00
00
00
00
00
00
00
00
00
00
00
00
00
00
00
00
00
00
00
00
00
00
00
00
00
00
00
00
00
00
00
00
00
00
00
00
00
00
00
00
00
00
00
00
00
00
00
00
00
00
00
00
00
00
00
00
00
00
00
00
00
00
00
00
00
00
00
00
00
00
00
00
00
00
00
00
00
00
00
00
00
00
00
00
00
00
00
00
00
00
00
00
00
00
00
00
00
00
00
00
00
00
00
00
00
00
00
00
00
00
00
00
00
00
00
00
00
00
00
00
00
00
00
00
00
00
00
00
00
00
00
00
00
00
00
00
00
03
01
04
00
fb
01
03
fe
03
fc
f7
fa
03
fb
f8
10
06
00
02
fe
ff
01
fc
fd
03
00
00
04
04
12
01
fb
03
03
fa
02
00
00
00
00
00
00
00
00
00
02
09
03
05
0e
09
01
09
05
01
ff
05
f7
f6
fc
f8
fa
01
01
00
01
00
fc
ff
01
fd
01
00
00
00
00
00
00
00
00
00
01
02
09
05
08
02
04
06
01
05
f8
04
fa
ea
fb
0c
f6
04
03
fd
fe
05
fb
fe
03
fe
ff
00
00
00
00
00
00
00
00
00
fb
fc
02
fd
fd
07
00
03
0a
01
01
07
02
04
01
03
02
00
00
00
00
00
00
00
00
00
00
ee
f3
ed
f1
ff
fa
f3
fa
f8
f2
fc
ed
14
03
0f
03
0b
02
f8
05
fd
fc
02
00
02
01
fe
fe
fe
f8
05
f3
ef
f9
07
fa
00
00
00
00
00
00
00
00
00
e1
ff
f1
e9
10
f9
e1
e7
df
09
06
0f
18
1f
2a
fc
03
07
f2
f3
f1
f6
ff
fd
f7
fb
fb
00
00
00
00
00
00
00
00
00
0b
0d
f2
07
1b
00
f5
07
01
df
0a
e3
01
24
0f
f6
fa
e8
fc
18
0e
15
14
06
19
25
0d
00
00
00
00
00
00
00
00
00
fc
02
00
01
fa
15
0a
11
fc
f6
00
f5
04
ff
f5
ef
fa
fa
00
00
00
00
00
00
00
00
00
00
00
00
00
00
00
00
00
00
00
00
00
00
00
00
00
00
00
00
00
00
00
00
00
00
00
00
00
00
00
00
00
00
00
00
00
00
00
00
00
00
00
00
00
00
00
00
00
00
00
00
00
00
00
00
00
00
00
00
00
00
00
00
00
00
00
00
00
00
00
00
00
00
00
00
00
00
00
00
00
00
00
00
00
00
00
00
00
00
00
00
00
00
00
00
00
00
00
00
00
00
00
00
00
00
00
00
00
00
00
00
00
00
00
00
00
00
00
00
00
00
00
00
00
00
00
00
00
00
00
00
00
00
00
00
00
00
00
00
00
00
00
00
00
00
00
00
00
00
00
00
00
00
00
00
00
00
00
00
00
00
00
00
00
00
00
00
00
00
00
00
00
00
00
00
00
00
00
00
00
00
00
00
00
00
00
00
00
00
00
00
00
00
00
00
00
00
00
00
00
00
00
00
00
00
00
00
00
00
00
00
00
00
00
00
00
00
00
00
00
00
00
00
00
00
00
00
00
00
00
00
00
00
00
00
00
00
00
00
00
00
00
00
00
00
00
00
00
00
00
00
00
00
00
00
00
00
00
00
00
00
00
00
00
00
00
00
00
00
00
00
00
00
00
00
00
00
00
00
00
00
00
00
00
00
00
00
00
f0
ed
f7
f2
ef
f0
fa
f4
f2
04
05
03
0d
16
fe
15
ff
00
f7
f3
fc
f9
fa
f5
fe
fa
f3
01
f8
f3
ff
fd
f5
ee
f8
fa
00
00
00
00
00
00
00
00
00
05
05
01
09
06
05
12
14
0d
0e
0b
15
0f
04
0b
1c
1b
16
f7
f6
fa
f7
f3
f6
ff
f8
f8
00
00
00
00
00
00
00
00
00
ec
ef
fb
f6
f0
f1
f5
f6
f8
e1
ec
f9
0b
0f
ee
16
0b
e6
02
f7
00
01
0d
0a
0a
0e
0e
00
00
00
00
00
00
00
00
00
0f
02
07
14
fd
05
fb
ff
0b
f3
f2
fb
fc
f7
f0
f7
f1
f3
00
00
00
00
00
00
00
00
00
fd
fe
fb
fd
00
fd
f9
fd
fe
03
08
03
ff
06
09
fe
00
02
00
03
fd
fe
04
02
fb
fd
01
05
03
0e
03
02
ff
00
05
04
00
00
00
00
00
00
00
00
00
fe
fc
ff
02
fc
fd
07
04
03
fe
f9
f8
00
ff
fb
fa
05
01
fa
fb
fa
f9
fb
fa
f8
fa
fc
00
00
00
00
00
00
00
00
00
02
fe
00
00
07
02
02
01
ff
0e
0f
07
0d
18
11
08
11
17
fe
02
fd
fe
00
01
fd
fb
02
00
00
00
00
00
00
00
00
00
08
fd
fc
ff
03
fb
fd
00
fa
02
01
01
02
06
02
02
02
00
00
00
00
00
00
00
00
00
00
00
00
00
00
00
00
00
00
00
f4
f8
fb
fa
fa
f8
fa
f6
f7
02
fe
ff
fe
00
fe
00
00
00
0f
fe
f8
10
06
17
f0
ef
ed
00
00
00
00
00
00
00
00
00
03
06
12
04
0a
07
fd
04
0c
f0
e8
f8
ef
ed
f5
f8
f5
f8
00
00
00
00
00
00
00
00
00
00
00
00
00
00
00
00
00
00
0d
04
03
01
fc
06
00
04
fd
ea
e3
e4
e1
e3
e3
df
dc
de
00
f2
f7
f5
f6
fc
ff
fa
09
00
00
00
00
00
00
00
00
00
f8
ec
ed
f5
ed
ec
f6
ef
f4
05
05
02
fd
00
04
fd
02
fa
00
00
00
00
00
00
00
00
00
f4
fc
ff
f8
fc
fa
fe
04
fd
01
01
fd
08
fc
01
0a
0e
07
f7
fd
02
fc
fb
fe
00
04
00
04
0c
fb
fe
00
fe
ff
fd
05
00
00
00
00
00
00
00
00
00
fc
fa
f0
02
ff
f5
0e
08
00
03
04
07
fe
06
06
05
fc
03
f6
fc
fe
f9
fd
fb
fd
03
fe
00
00
00
00
00
00
00
00
00
f9
f9
f3
01
f7
fa
08
fe
06
f1
f7
fe
07
f6
fc
14
0c
fb
02
03
ff
05
01
02
00
09
09
00
00
00
00
00
00
00
00
00
04
03
ff
07
00
02
07
05
fd
fa
fa
f5
02
f8
fb
03
02
02
00
00
00
00
00
00
00
00
00
02
00
fd
fe
04
00
f8
ff
01
03
0e
05
0a
09
08
f3
fb
08
08
00
00
09
12
09
fb
02
07
f4
07
ea
1c
22
2e
cd
d5
de
00
00
00
00
00
00
00
00
00
f9
f0
09
02
03
f3
10
0b
02
fd
eb
01
06
e3
02
04
01
f8
00
fe
fd
fd
01
ff
f7
fd
ff
00
00
00
00
00
00
00
00
00
0f
fe
fe
18
1d
25
f2
1c
12
01
fc
ef
06
03
ff
f5
08
00
07
e6
ee
f3
ef
e7
fa
fe
03
00
00
00
00
00
00
00
00
00
f1
eb
ff
ee
e3
ef
fc
05
f7
0b
10
09
1e
21
26
f2
08
0e
00
00
00
00
00
00
00
00
00
03
03
04
07
07
06
04
04
04
09
0a
07
02
05
03
02
03
04
06
09
0b
08
0b
0b
07
07
07
e6
e6
e7
f3
f7
ec
f0
f1
ec
00
00
00
00
00
00
00
00
00
00
f6
f9
fa
f0
f5
01
f9
fc
fe
ff
01
08
06
02
08
05
02
ff
00
ff
01
02
01
fe
ff
ff
00
00
00
00
00
00
00
00
00
00
fa
fe
fe
fd
01
f9
fb
00
06
03
05
0b
0f
07
10
0e
0c
07
05
0b
0a
0b
0d
0a
03
02
00
00
00
00
00
00
00
00
00
ff
04
07
06
09
06
04
05
06
05
01
00
05
03
01
05
03
03
00
00
00
00
00
00
00
00
00
02
03
03
04
06
04
00
09
06
ff
07
f3
14
08
13
f8
00
0a
02
00
fc
0c
04
00
fd
05
05
06
f7
0a
fc
fb
f2
01
fe
f9
00
00
00
00
00
00
00
00
00
f5
0d
f7
ef
08
00
db
e2
e9
ff
11
01
11
1a
20
ef
f9
f4
01
01
02
03
08
06
00
06
07
00
00
00
00
00
00
00
00
00
15
10
fc
09
38
14
12
25
10
f0
0e
fb
03
fc
12
d8
fd
f4
01
16
f6
19
1f
fd
04
07
07
00
00
00
00
00
00
00
00
00
ee
f9
fd
e9
fe
10
02
0a
f6
07
04
ff
fd
1b
01
05
1a
0b
00
00
00
00
00
00
00
00
00
00
00
00
00
00
00
00
00
00
00
00
00
00
00
00
00
00
00
00
00
00
00
00
00
00
00
00
00
00
00
00
00
00
00
00
00
00
00
00
00
00
00
00
00
00
00
00
00
00
00
00
00
00
00
00
00
00
00
00
00
00
00
00
00
00
00
00
00
00
00
00
00
00
00
00
00
00
00
00
00
00
00
00
00
00
00
00
00
00
00
00
00
00
00
00
00
00
00
00
00
00
00
00
00
00
00
00
00
00
00
00
00
00
00
00
00
00
00
00
00
00
00
00
00
00
00
00
00
00
00
00
00
00
00
00
