00c4
fe73
ffcf
fe34
fe0d
fff2
0107
fff5
ffef
0068
fff8
fff7
0119
007f
ffff
0091
fecf
fff4
009d
fffa
fffb
0018
fff7
0093
010d
fe8e
fe17
ffff
fff8
fde5
fffe
fffa
fde9
fe6b
fffd
01b1
ff8a
fffa
00a5
fff8
fff6
ff83
fe8f
0088
fffc
fe72
fff5
fff9
fff8
ffb4
fff7
fff8
0102
00a3
fffa
fffa
00c3
00cb
ffe5
0052
ffb4
fedf
0010
fff5
