ff
fc
15
cb
d7
01
fe
00
08
fa
00
01
f9
03
00
fd
c4
01
fb
fe
fe
fc
fe
09
fd
15
f1
fe
01
22
ff
00
19
ef
02
f9
fb
ff
04
01
00
06
05
ff
00
0f
fe
01
01
f9
00
01
fc
0f
02
fe
02
fe
02
04
06
07
e8
01
f0
12
f5
02
e0
ff
02
fe
03
d2
01
00
f9
fc
00
03
03
02
16
02
01
06
01
00
f4
01
f1
fe
01
04
fe
ff
0f
e9
01
02
d4
00
06
01
01
0a
12
ff
ff
11
ff
fe
01
f6
02
ff
09
d7
00
01
ef
03
0d
fb
0a
06
ec
02
04
ff
f4
13
23
fe
fe
ff
ff
06
ff
fe
01
01
01
ff
11
ff
fa
00
02
f3
01
fd
06
fc
14
01
fe
f8
ff
ff
fb
14
00
ff
10
ff
ff
ff
02
fb
fc
03
ff
f8
ff
01
ff
f8
fe
01
ff
f9
00
fe
01
ff
f8
fd
00
f8
00
ff
fe
ef
0d
1d
09
ff
f6
00
01
04
fe
fe
ff
f6
00
fb
1a
00
00
00
fe
24
ff
fc
ff
ff
09
00
ff
f7
00
ff
f2
05
00
00
1b
fe
ef
ff
ff
06
ee
f1
fe
eb
fe
fe
fe
0e
ff
00
ff
17
fe
00
03
f8
11
02
04
f7
19
02
fe
19
f2
f5
e2
00
02
02
01
01
01
fe
09
ff
ff
01
f6
00
04
00
fe
f5
fe
00
02
00
fe
02
00
00
01
00
04
01
01
00
e8
02
01
01
01
fe
10
02
ff
0c
00
ff
01
f6
00
00
00
ec
00
01
fe
00
06
fc
00
01
f2
01
df
00
f4
0a
0f
01
01
00
01
e0
01
01
e9
f2
01
fd
08
ff
e2
01
00
fa
ff
ee
de
06
09
02
00
03
fd
ff
06
07
01
f9
0e
ff
f2
01
02
01
00
f0
fe
00
00
fe
f2
02
ff
ff
f7
ff
01
ff
e5
01
fb
f7
02
06
06
00
f0
f9
04
02
04
00
05
02
03
02
01
ff
f1
00
01
00
06
fe
f2
ff
00
0f
ff
f5
eb
fd
01
01
00
f1
02
00
fe
ff
ff
04
03
ff
09
ff
ff
06
fd
00
02
fc
02
ff
ff
04
ff
02
02
f8
00
fe
e3
05
0c
fc
09
04
02
00
ff
0a
fc
ff
ce
ff
03
00
00
02
00
02
05
ff
01
00
f5
00
04
ff
00
f1
02
00
ff
eb
f1
01
01
b7
ff
fe
e1
f2
fe
00
eb
00
01
00
ff
00
0d
01
ff
0f
01
ff
00
00
00
ff
01
ef
fe
01
fe
01
01
ff
04
04
ed
01
08
c3
fb
d5
d3
fe
02
ff
f0
fd
01
00
02
06
02
05
dd
fe
fe
ff
01
f5
ff
05
05
db
cc
01
ff
d0
00
fe
ca
e6
00
03
f3
00
03
00
00
ed
ca
07
00
c6
ff
fe
03
0f
00
00
01
0a
00
00
08
03
eb
05
e4
fe
09
00
