9f
16
fc
64
6a
d9
06
d2
55
1f
84
15
26
e9
de
90
1d
7f
89
59
d3
5e
2d
12
b0
a8
56
2b
93
51
62
dd
4f
b6
29
e1
b3
4a
ad
22
c0
a5
29
76
06
a7
a0
66
85
34
92
ee
b7
64
db
95
08
4c
1e
90
2c
2f
ec
ac
fc
b2
19
88
a2
ab
8e
18
30
5c
89
48
69
ac
ef
a8
32
2b
34
46
35
b0
8f
c2
c4
66
37
c0
b1
9f
08
d1
90
2d
7c
aa
5e
38
89
57
21
e2
d4
f5
58
d7
5d
7f
c7
42
73
45
1c
0d
04
c9
37
c3
05
1f
ff
17
d5
cf
69
9d
05
56
3c
99
32
84
93
e5
1c
e1
73
46
10
21
44
54
0b
64
9c
2b
03
e3
21
b0
4e
3a
3a
5a
17
47
51
10
03
d6
68
37
e6
dd
9f
41
68
c3
f9
40
1b
3e
52
02
f2
27
62
20
bf
d4
00
da
4f
66
05
0d
66
ae
d4
69
7b
98
9d
1a
ec
42
c3
52
a4
e0
ce
14
3e
15
dc
5f
70
9a
fb
74
48
b1
d1
9b
ba
b1
cb
c2
bf
71
3d
b5
8a
a9
e9
c5
20
41
03
58
16
38
65
f5
a0
20
98
e8
19
4d
3f
7c
1c
03
d5
de
22
8a
94
2f
28
38
68
be
5f
a9
16
55
b6
25
c5
49
09
76
95
40
83
50
8e
f1
a0
a0
3e
3a
7a
94
9e
80
89
f0
bd
45
0e
f6
02
18
a0
a6
15
2a
2f
59
73
93
69
55
26
ec
ea
e6
0b
86
52
8f
6f
83
0b
5d
87
9b
50
58
d5
ad
64
f8
93
f4
b0
06
84
eb
4c
44
8d
e0
c9
b1
2d
b4
a9
af
bb
67
90
e7
4e
4b
e6
28
2c
9d
9f
56
51
63
f2
63
67
39
27
12
79
b8
09
7b
38
6f
26
b5
ca
de
b6
0c
52
15
69
09
0b
ad
97
74
25
63
b3
9c
fe
90
ea
ae
b1
4c
4b
3b
29
b0
0b
e4
c7
32
3a
0e
77
94
6e
95
59
8d
e4
b8
18
dc
07
5b
d1
15
7c
a3
a7
e4
2f
69
b1
6c
b9
7a
7e
48
10
15
a5
56
f2
91
1d
cd
7e
04
