4b
50
3c
f7
12
84
20
08
bd
92
ef
3d
de
24
15
39
0b
da
69
d6
81
51
fa
e2
63
0b
d9
35
51
78
76
75
63
3e
b4
4d
c1
b6
70
79
b1
c3
03
fa
a4
2b
48
16
35
4f
e0
72
6e
23
62
b7
6d
ab
a6
e5
da
2b
d8
41
0b
e6
07
8f
d0
21
b3
97
9c
05
59
25
2e
1d
5e
d5
40
4a
84
14
11
22
ff
cf
e3
67
63
55
2c
09
5e
48
04
7c
21
fe
12
d0
d3
52
d0
91
f7
35
e9
5c
63
8c
4f
a3
a0
a4
fd
43
78
42
f9
1a
27
67
a0
1b
8d
dc
c9
cb
40
5b
da
c6
1a
b0
7a
2b
c4
08
5c
71
0e
21
d5
a1
60
f5
62
ff
a2
08
cf
0c
ca
49
ef
e6
ca
ec
2f
53
80
31
e1
f2
88
89
39
61
f9
85
54
58
7e
57
29
ff
78
1c
70
88
8a
15
bf
67
fd
4a
56
eb
95
5c
48
b9
53
db
d9
a5
3c
d7
f5
a0
42
90
c1
09
8e
30
9e
0c
89
97
52
76
8f
13
